#include "network_deneme_1_data.h"

ai_handle ai_network_deneme_1_data_weights_get(void)
{

  AI_ALIGNED(4)
  static const ai_u8 s_network_deneme_1_weights[ 276 ] = {
    0x68, 0x2e, 0x24, 0x3f, 0x04, 0xe5, 0xec, 0xbd, 0xda, 0xae,
    0x0c, 0x3e, 0x98, 0x33, 0x40, 0xbe, 0x09, 0x27, 0x4c, 0xbc,
    0xd9, 0xd3, 0xee, 0xbe, 0xd5, 0x4b, 0x1a, 0x3f, 0xfc, 0x50,
    0xe0, 0xbd, 0x30, 0xf9, 0xe8, 0x3d, 0x56, 0xb6, 0x1f, 0xbe,
    0xdb, 0x23, 0xfe, 0x3b, 0x41, 0xf3, 0xf1, 0xbe, 0xd2, 0x29,
    0xa9, 0xbd, 0x29, 0x15, 0x4e, 0xbf, 0x6a, 0x2a, 0x0e, 0x3d,
    0x62, 0xc2, 0x5c, 0x3e, 0xb2, 0xea, 0x16, 0xbf, 0x9a, 0x03,
    0xf8, 0x3d, 0xc8, 0xe2, 0x35, 0x3d, 0x64, 0x36, 0x57, 0x3f,
    0xd8, 0x6b, 0x55, 0xbc, 0x3e, 0x88, 0x1d, 0xbf, 0x1a, 0x75,
    0x1a, 0x3f, 0xe9, 0x04, 0x4a, 0xbe, 0x04, 0xf1, 0x6a, 0x3f,
    0x0b, 0x8c, 0xc5, 0xbe, 0x0e, 0x21, 0xee, 0xbb, 0x79, 0xdd,
    0x24, 0xbe, 0xeb, 0x15, 0x16, 0xbe, 0xc6, 0x5e, 0x43, 0xbc,
    0xd3, 0x64, 0x21, 0x3f, 0x98, 0xa8, 0x1d, 0x3f, 0x4b, 0x65,
    0xa7, 0x3c, 0xf4, 0x54, 0x34, 0xbe, 0x12, 0x67, 0x0d, 0x3d,
    0xdf, 0xed, 0xab, 0xbc, 0x90, 0x33, 0xe7, 0x3b, 0x80, 0x29,
    0x37, 0xbd, 0xf4, 0x76, 0x8e, 0xbc, 0xfa, 0x59, 0xb3, 0xbc,
    0x80, 0x89, 0xe3, 0x3e, 0xba, 0xd1, 0xfb, 0x3e, 0xc0, 0x2a,
    0x5e, 0xbf, 0xd1, 0xdc, 0x71, 0xbf, 0x2e, 0x55, 0x79, 0xbf,
    0x78, 0xb1, 0xe7, 0xbc, 0xc0, 0x4d, 0x9e, 0xbd, 0xe9, 0xaf,
    0x73, 0x3f, 0x5a, 0xaa, 0x66, 0x3f, 0xe7, 0x99, 0x6e, 0x3f,
    0x17, 0x7e, 0x3f, 0xbd, 0x58, 0x19, 0x67, 0xbc, 0x17, 0x6a,
    0x31, 0xbd, 0x03, 0x0e, 0x40, 0xbd, 0xf0, 0x42, 0x78, 0xbb,
    0xff, 0x21, 0x54, 0xbb, 0x49, 0x1a, 0xde, 0x3e, 0x1b, 0x9f,
    0x65, 0x3e, 0x10, 0x4a, 0xc4, 0xbb, 0xa2, 0x79, 0x72, 0xbd,
    0xe4, 0x33, 0x38, 0x3f, 0x67, 0xf9, 0x73, 0xbf, 0x9c,
    0xa1, 0x3a, 0x3d, 0xb7, 0xaa, 0xd4, 0xbc, 0x2d, 0x31,
    0x47, 0xbf, 0x46, 0xe3, 0x79, 0x3f, 0x6e, 0x09, 0xd3,
    0xbc, 0x09, 0xcb, 0x10, 0x3e, 0x09, 0xcb, 0x10, 0xbe
  };

  return AI_HANDLE_PTR(s_network_deneme_1_weights);

}

